/**
  ******************************************************************************
  * @file    network_data_params.c
  * @author  AST Embedded Analytics Research Platform
  * @date    Sun Jun 25 18:47:13 2023
  * @brief   AI Tool Automatic Code Generator for Embedded NN computing
  ******************************************************************************
  * Copyright (c) 2023 STMicroelectronics.
  * All rights reserved.
  *
  * This software is licensed under terms that can be found in the LICENSE file
  * in the root directory of this software component.
  * If no LICENSE file comes with this software, it is provided AS-IS.
  ******************************************************************************
  */

#include "network_data_params.h"


/**  Activations Section  ****************************************************/
ai_handle g_network_activations_table[1 + 2] = {
  AI_HANDLE_PTR(AI_MAGIC_MARKER),
  AI_HANDLE_PTR(NULL),
  AI_HANDLE_PTR(AI_MAGIC_MARKER),
};




/**  Weights Section  ********************************************************/
AI_ALIGNED(32)
const ai_u64 s_network_weights_array_u64[2194] = {
  0xbee2ccc5be1129b3U, 0x3f5392763dc82432U, 0xbe8a8fa63e2cc939U, 0xbc66c3233f6d1c50U,
  0xbeb1841ebeb0aaf5U, 0x3ed362a7becdced8U, 0xbeac630c3e7dd9e7U, 0xbf1830273e000a6aU,
  0xbef53c2f3ebb28cbU, 0xbf28123dbed2d67fU, 0x3ee0a4ca3f621617U, 0xbe96ed3ebf0b042fU,
  0xbeafb57f3ef02bf4U, 0xbedb416dbd06c3a0U, 0xbecd3848bf2a4230U, 0xbeb3a6f43ed53c02U,
  0x3aaac9c33de0c1beU, 0xbe33f652bd5c3f08U, 0xbd937a9abe218036U, 0xbe015f543e9a6d60U,
  0xbdb8e02cbeaaa50aU, 0xbe858050be395ce5U, 0xbdf7c864be37bb03U, 0xbf1ba76a3dd8929eU,
  0xbcead3d33e17afa1U, 0xbddba7943dd15f5aU, 0xbe170fcebdf40675U, 0x3de13871be3c6a29U,
  0x3cb3d8f2be9f7110U, 0x3d7b5ac5bc2cd143U, 0x3da69731bec75763U, 0xbe37ced23c00e8b9U,
  0x3d76afb83e4d8d35U, 0x3dec5d393dbda28aU, 0xbe741f103d39f61dU, 0x3e508120be93a91fU,
  0x3e093ab3be618ea4U, 0x3e45780dbe7ee69aU, 0xbd3307343b562150U, 0x3e77dbdc3e1b1966U,
  0xbe3975b6be0ab7d2U, 0xbe7f87a1be537ca8U, 0xbe588d003d2a5367U, 0xbe627bb43d0b2070U,
  0xbc0050c03e34adb9U, 0xbcc55337bd0424d9U, 0xbe358e12be58141fU, 0xbcdf212abe93a509U,
  0x3c8cfcda3e7cd419U, 0xbd82885b3d8fb00bU, 0x3e83213a3e95e7b0U, 0x3dedb4fabd84c988U,
  0x3d4c42243e152449U, 0x3ebd5ca43ea96199U, 0x3e42b2ca3dfaab78U, 0x3eca50fd3d9f5a12U,
  0x3e981f813e97e3a0U, 0x3e1e64243ec6221eU, 0x3e878821bdf3612fU, 0x3ec5c1ff3e8aa0edU,
  0x3e97aa7a3db5cad7U, 0xbd8263323e6e6132U, 0x3e788c863dfce913U, 0x38e899d43e3d3063U,
  0xbd8e56983e349820U, 0x3ca10065bf591ff2U, 0xbd0130a0bfa765e2U, 0x3d77750d3d6bd3b9U,
  0xbe79e8e8be48a751U, 0x3e286629be1ede40U, 0xbe0ab6733d5b5909U, 0x3e0b228bc0130aedU,
  0x3d564d66bfb94e8fU, 0xbbde99ab3e0dd020U, 0x3db651ecbea63b5fU, 0x3de1a8d03e5af728U,
  0xbe97dc59be9ba118U, 0xbeb28326be6f471cU, 0xbca7dafd3e4939d4U, 0xbe56c3fcbf185bd9U,
  0xbd947ab83e58f9e4U, 0xbe36f8a73a29eee8U, 0xbe3fec383e344740U, 0xbddf1c253e4f2682U,
  0x3cd2cf20bd102b00U, 0x3d4f110cbe087098U, 0xbdf544e8be175565U, 0xbdc53cb0be721f53U,
  0xbe46aaf7be32573eU, 0x3daead303dd12083U, 0xbd9709873e319a33U, 0xbe2269e23dcc3a70U,
  0x3e37e1fcbdf5f116U, 0x3e733026bc75e997U, 0x3d5edcbdbe20e3fcU, 0x3dee6ca8be2ceb46U,
  0xbbfb2b7ebe5d9ec4U, 0xbeab6ab33e15e2b0U, 0x3c7f412e3c1b77f9U, 0x3d453a7dbeb1f636U,
  0xbe0307d3bc84afebU, 0x3ddaa37c3e803e3eU, 0x3d6adaff3d8dc112U, 0x3f0d6c9a3d47a84bU,
  0x3ebd45363db31138U, 0x3e7c197e3e8d826bU, 0xbe133d62bec95cbeU, 0x3cd398633dbbd4f8U,
  0xbdf732f53e739458U, 0x3e246d02be8c6e6cU, 0x3e797ddbbdf60604U, 0xbe2dae78bed0152fU,
  0x3e26013cbe34d243U, 0xbe63026cbe1fc131U, 0x3d9179693d51a44bU, 0x3e148521be73a73dU,
  0x3e356561be2717b9U, 0xbe00875f3e233befU, 0xbe1eb7cabe5105daU, 0x3de7d7efbe5e8660U,
  0x3e877428be3109d9U, 0x3debb3f83d19ec44U, 0xbdd6ec5cbe401071U, 0x3a839a39be221155U,
  0x3e67c41cbd3b9181U, 0xbe37841b3e5a9bb6U, 0xbd9f7173be5b91f9U, 0xbe3976b53d1255d9U,
  0x3d20bd993d9e53f8U, 0xbe9289593e3237e3U, 0xbb85837d3df49c1aU, 0xbf0bb747bec1cd2dU,
  0xbda339763d850ad8U, 0x3eb6338d3c2a33c4U, 0x3e3d2ab7befaa147U, 0xbd56ab833e360065U,
  0xbdd4f8703e34d2bdU, 0x3e5f88e8be46a9acU, 0xbcf715dbbe6a67d1U, 0xbe6ce087bd6409c5U,
  0x3e7594a03ea8825eU, 0x3e61f97cbc992514U, 0x3d1cbf403e0e4cf0U, 0x3c5db193be754f6cU,
  0x3e665a313dae14f8U, 0x3e4978133d7f83ccU, 0x3e4eecd83d8b79d6U, 0xbdffad4fbe404d89U,
  0x3d4c1f753c680d95U, 0x3e3e21e83dbaf01eU, 0x3cfe35f23dde172cU, 0x3d0356533e7b537dU,
  0x3e92cb023d83da4cU, 0x3de00b683e546695U, 0x3e207e94be674b76U, 0x3e61f9bcbe2925deU,
  0x3d233704bd2d0b2aU, 0xbe794d8c3d226d0fU, 0x3d8f93af3e96a18fU, 0x3e1bdc85be63d1efU,
  0xbe1e2903bdfaf23dU, 0x3d15135a3e1ea573U, 0x3e5ee12e3e265ac5U, 0xbdf9bcfcbece3dbdU,
  0xbcd329b33d10e95fU, 0x3d48337abe06fce8U, 0xbe3d7111bdc2a5c6U, 0x3e1fda9b3d8ca993U,
  0x3ddc469f3e22dac9U, 0xbe390198be1ce8cbU, 0x3dde6da1be9abc01U, 0x3d16c55ebcfaf10bU,
  0xbba1dbf93d9a5bbaU, 0x3df9dff1be89f736U, 0x3dbdad93be34e9abU, 0x3dbf96b6be0e45c8U,
  0x3e33abf5bc11979bU, 0xbe56143f3d2990bcU, 0xbe95ecb5bd0e7c41U, 0x3df5380a3e8783d2U,
  0xbdded00ebe74e344U, 0x3a52716cbe93cab7U, 0x3d4d7dd4be636a17U, 0xbe670c243d41e285U,
  0xbe484438bdfe17aaU, 0xbeb5fe4c3d5d873aU, 0xbd3d0e273d42c008U, 0x3d6b527fbda38946U,
  0x3e14fe32be04fd4fU, 0x3caa609dbd115d6aU, 0x3d4835aebd878a68U, 0x3be6904d3e0bab80U,
  0x3c9ffa75be5fe3a8U, 0x3e8600f4bf455b7dU, 0xbdb49ff0bf8ec01aU, 0x3de47779bbbb063dU,
  0xbe1969b7bdf985f4U, 0xbc5a895dbe675093U, 0x3de84f71be214b6aU, 0xbf13abeebff5dec6U,
  0x3da778bcbfbf7d72U, 0x3ddb9a083c0c6f81U, 0xbd96d9083e6aa533U, 0xbb3df9493d37f650U,
  0xbe9f447ebe379646U, 0xbebd7248be3cbf32U, 0xbdd4d4373e384a44U, 0x3d7cfa42be4efebfU,
  0x3e740cdc3c1ffab5U, 0xbddf0e11be67c6f7U, 0xbbf0147d3e36190dU, 0xbe2a56c9be878b52U,
  0xbd9787a8bd34b138U, 0x3e044ab0be5c71e8U, 0xbe57527e3e0c7264U, 0xbbcaae543d2f5377U,
  0x3d6af60b3e26fb55U, 0xbe363e6bbe56076fU, 0xbcb46655bd0d36d1U, 0x3d7c8ecdbcfe881fU,
  0x3dbec3383d18e751U, 0xbe87b0f0be33f398U, 0x3d1e7a003e4524d6U, 0x3bd156d43d0d376fU,
  0xbe359b913cca6747U, 0x3e310601be0edbadU, 0xbe7acd793dfcc40cU, 0x3e65715e3e534d02U,
  0xbe339cafbe687c7fU, 0xbe51e856be8bb2a8U, 0xbd8f49693c606126U, 0xbeeb0be73db12e5fU,
  0xbe8bdf4d3e1c7808U, 0xbf5a2b6bbe826760U, 0x3d32c01c3efae875U, 0xbd96fcb4bf7b001cU,
  0xbebb67b1bc68c68aU, 0xbd5e6b2e3e5c217eU, 0x3cbed9b6bf74cf14U, 0xbe22f5aa3e339007U,
  0xbf84c9adbf35d4e4U, 0x3e42fea5be7f2f94U, 0xbff0a9a43e848cf9U, 0x3d9304a33e44fbf4U,
  0xbf3c110abfd0b2adU, 0xbbd04a4bbfe0d418U, 0xbfae11c4be21b415U, 0xbe273460be9fb8d1U,
  0xbf76f636bd7bd8a7U, 0x3e17f81bbff42feaU, 0xbe3a67723dc35bc5U, 0xbfca54cfbde5e160U,
  0xbfcb2bcc3ea4b73aU, 0xbe0b9e64bf2c9ea2U, 0xbff22a95bd9a1da9U, 0xbf415f3b3ecb9847U,
  0xbeeda614be1ba807U, 0x3e958fc2bd9fb481U, 0xbeb7a2c73be73730U, 0xbd8388b43f1c91d1U,
  0xbed01ebabc667670U, 0x3e0704bdbd23582eU, 0xbeb99e21be6f83fbU, 0xbe6153e03dcb168bU,
  0xbeb40baf3dd78f65U, 0xc0591d843dc4493fU, 0xbde144733efc637eU, 0xbba8243dc051f295U,
  0xbe3761333e5d68b5U, 0xbd1015cbbe5d656dU, 0xbd78409dc0580120U, 0x3d0a66383e9b8f47U,
  0xbc5d1a7cbcbfd1a0U, 0xbd3c4a9ebf60e361U, 0xbd29f1c6bf8f97d6U, 0x3e260f4a3d8dec42U,
  0x3c4f9d963e1e9a8eU, 0x3e1a94d4be545b90U, 0xbe81806fbd9df216U, 0xbe5d76d7c00189a0U,
  0x3d216f17bf8c73a0U, 0x3dd3ad713c456fa3U, 0xbe0b08073e19bb37U, 0xbe4e0c4dbe59a96cU,
  0xbe796ce83e271f9aU, 0xbd10e3843e3685f6U, 0xbc43e9ecbe0456e0U, 0x3e4ffcc1be2be0a6U,
  0x3e66a9703da097f8U, 0xbd86b8c5bf5b919aU, 0x3e3f4ee8bfbef4b0U, 0x3d036270be16511eU,
  0xbddc3030bce97af0U, 0x3eb5ae79be3d7c18U, 0xbe4ca6b8bd298d30U, 0x3db47b71c014b623U,
  0x3e2a4e2cbfc4ee16U, 0x3de928843e8b10faU, 0xbb8d16cd3c66b974U, 0x3df1eb4cbe338fe8U,
  0x3e08ff903d95648dU, 0x3dbdba7c3d0430edU, 0x3e3101eb3e0f94d4U, 0xbe083804bf47b774U,
  0xbd7137933e2a255cU, 0xbe1cc86abfd4470aU, 0xbdfd56e7bfd6cf06U, 0xbe8a3a443e6739f1U,
  0x3e68fd37be7299e5U, 0xbdc36c86be70ae72U, 0xbcde6b023e3980cbU, 0xbf00a829c010cd93U,
  0x3e5b673bbfe51228U, 0xbdf18223be7fa355U, 0x3e13c4c8be1679bcU, 0x3d8a613d3d86c840U,
  0xbd9aa4703dd05ec8U, 0xbe6887cebe3565d2U, 0x3d4d2a993d0c8cd0U, 0x3e524d07bf479706U,
  0xbf4fdbd5be79f98aU, 0x3d011b1bbe9fd3f2U, 0xbfd407203eb2cc87U, 0xbdc96f783e46399dU,
  0xbf12fb46bfba789dU, 0x3e095cbdc014f9b7U, 0xbfc7bacdbdc5798aU, 0x3d07a6033e45ea95U,
  0xbf01da763ce67a53U, 0xba84398cbfcb660dU, 0xbdb88ec8be103e54U, 0xbfc1eefabdd47c78U,
  0xbfc581ff3db287c6U, 0xbe86067ebe0b21f2U, 0xbfa64daabdffc8b1U, 0xbf957e713dc4ef9fU,
  0xbdd3a7cfbe0310f5U, 0x3e450ca63e41080aU, 0x3cfaa1d0b88de674U, 0x3e51f1b03dfd0509U,
  0x3c283bfebe7e09f9U, 0x3e6df55bbe9632deU, 0xbd58169d3d3d4bedU, 0xbf509b04beb9d180U,
  0xbd8c95cdbd9ef560U, 0xbf232741be0fd117U, 0x3b84030c3ee78c13U, 0xbdbbaaecbe6b81d0U,
  0xbea30c8d3d9ad1b3U, 0xbe054612be8f13ddU, 0xbeb299ecbeccd23fU, 0xbeb7a6bf3daf5f7eU,
  0xbe7755003d7abad0U, 0xbe876f36bf1461e7U, 0xbe042f90bf89ab9eU, 0x3e07ffa2bd0d2fadU,
  0xbd1bf3403d831ddfU, 0x3e5caea2bd81dd88U, 0xbd1b1720be12a7deU, 0x3d9f956ebfec6e67U,
  0x3e5907c4bfb9746eU, 0xbe32392d3e3be838U, 0x3d157f86be4dc20bU, 0x3e3414273d241820U,
  0xbda86000be01ab8eU, 0x3c80957d3de6314cU, 0x3b3511fabe6a9838U, 0xbe17b338bf33bfd0U,
  0xbd4722a7bd96da68U, 0x3ef0bbac3da0a23aU, 0xbe3831653e18c386U, 0xbd427bc23f3e75b4U,
  0xbe3399c3be9e097dU, 0x3e2d0af1bbdb0ad9U, 0x3c3464dcbe3f530eU, 0xbf02d9c43e683ce9U,
  0xbe50bb5b3bc76d2eU, 0xbeb6b70f3db4bd58U, 0xbe3b62983ee26cb1U, 0x3da15084bf3b5bbaU,
  0xbe75e3c6bcb2e24aU, 0xbe8bf103be3fcfa2U, 0x3d298e5dbdf679a1U, 0xbe4974113e1dc889U,
  0x3e36886a3ae652a1U, 0x3dd306d4bc6e9bbaU, 0x3d8a6d7dbe152954U, 0xbf61349abda8580bU,
  0x3cb47511be6d0398U, 0x3d6b6928bdeeda31U, 0xbd0858f2bf2cd36bU, 0xbe7dd971be922c80U,
  0xbdb6bcc0be26f9d8U, 0xbe8110a3be874550U, 0xbe8889bf3c9c05a1U, 0xbe59c758beefd862U,
  0xbe7f4168bd56113aU, 0x3e7259243d84fe9bU, 0xbc85e675beda95a4U, 0x3dba8265bd3dcd1dU,
  0x3ee0db8d3da074bcU, 0x3d6f8e973d457340U, 0x3dc7e5203e0b7756U, 0xbe2eb4c0be47177cU,
  0x3e339fc43ec5fc68U, 0x3e5417bd3e7d9cdcU, 0x3b7f20cc3eca25f4U, 0x3f5449ec3eca679dU,
  0x3e8dda343d6f7c52U, 0x3e8238d83eca4571U, 0x3e844495be0f0a45U, 0x3d1102903dfc2626U,
  0x3ee508c43d76a497U, 0x3ea2693a3e6a1f43U, 0x3e438a813ec22e1aU, 0x3eaf0dee3e3dcc1eU,
  0x3dcaac823db1ab5eU, 0xbc1fe8a03e347594U, 0xbe0fba4ebe4d1e04U, 0xbe539705be72451eU,
  0xbe2de28b3de746d9U, 0xbd75e5363d8bff95U, 0x3e2289e2be2c2dedU, 0xbe86cfa03d544a12U,
  0x3dbe31f7bd9f2ac6U, 0xbd7b50ccbd21e30eU, 0xbe373599be71a808U, 0x3e007d0bbe51e099U,
  0x3e0042533e1c0f26U, 0x3d7c1008be72da37U, 0xbded2619be3f72b2U, 0x3e2286dbb90c6605U,
  0x3d240aac3d8231dbU, 0x3e0991c93d18cefaU, 0x3dbd0bbd3e35c8f6U, 0xbdb861e7be4c38a2U,
  0x3cbb48b43dad77d5U, 0x3ea51a793ec7a168U, 0x3e940ed23cb9b104U, 0x3ef3d50d3e536e60U,
  0x3ece036a3e6e82bcU, 0x3f1216b73ecdb3e6U, 0x3e52e6d8bc8af601U, 0x3e4111eb3eab9694U,
  0x3e4a2f3d3d790318U, 0x3e2fa1563d99c06aU, 0x3ecf643b3ea6260dU, 0x3edc402c3bbf7dbcU,
  0x3e23046ebd6d2113U, 0xbdb6f6933e2380a6U, 0x3db307dfbd72e6d2U, 0xbe910285bda87c45U,
  0x3e550c4c3db6fa27U, 0x3e1330e6bd717b5cU, 0xbe427de4bdfbd691U, 0xbf1b1644be6a375aU,
  0x3d4dda59bd302bbeU, 0xbe37cf3d3dc2d57dU, 0xbe7a9c8fbe16d251U, 0x3e0ad9213c4a40bdU,
  0xbe64280f3d04d837U, 0xbe84ec353d90df1dU, 0xbce4392abdc55820U, 0xbd60714ebe2fad04U,
  0xbd6c03a0bd03e090U, 0xbe0f0656bf6a09c6U, 0x3e643ba4bfc12f34U, 0x3e32825d3e3bc9f4U,
  0xbe0cf0c43dd627a9U, 0xbe1c69efbd1020a0U, 0xbe14b01cbd100af5U, 0xbd18aaf1c011e5ecU,
  0x3cf63baabff74069U, 0xbe6319fb3dc48192U, 0xbd901ec03e2aef2fU, 0x3e292c633d3a1610U,
  0x3d39deec3e07537cU, 0x3de9e66ebdb37592U, 0x3e7a43eabde23840U, 0xbdcf9ca8bf33f975U,
  0xbdd6aca0be2822e4U, 0xbe5b6f343e6557b4U, 0x3df2af20bda1cc38U, 0xbd3345c0be3f7010U,
  0xbe2076003e41926cU, 0xbe6df020be6907c4U, 0xbdbb4540bcd1a0a0U, 0x3e3deb9c3e71a884U,
  0x3d9d1c00bd6125e0U, 0xbe6e8e28be727cf8U, 0x3cedca803df2b098U, 0x3e09e2fcbe0dfa1cU,
  0xbdc984c83db87a98U, 0xbcfccb403e7446c8U, 0xbd8c6b30be0dd1b0U, 0xbcf81060be386694U,
  0xbe8c1ce73e350083U, 0x3f2a65fc3da4a694U, 0xbcac4def3e62c76dU, 0x3dd909c43f26cc5fU,
  0x3d960769be29775bU, 0xbdd81f29be835504U, 0xbdf22e73bd52191fU, 0xbee6d92dbe0fb02aU,
  0xbdaa103e3e000a68U, 0xbec40681be1a88a9U, 0x3e7ad1ef3f45f384U, 0xbe924d62bdc886efU,
  0x3dfbd1343ed11e75U, 0xbce8a7c7be5e4bddU, 0xbe9aa165bedc2ce1U, 0x3cd1b7843e61f436U,
  0x3dcfc4733e3b718cU, 0xbeab2f373e2e18c2U, 0x3e0fb4c83e395dc3U, 0xbe75426dbec68fe8U,
  0xbdbddd6e3df9c568U, 0xbdea80b9be3990caU, 0xbdb81a18bd0ebc96U, 0x3e4d0fcfbee13f2dU,
  0x3e4248373de418f8U, 0x3e798e4d3e899b92U, 0x3e3a4ce1be776a03U, 0xbd8716c43e1b01f8U,
  0x3d8ef768be8de471U, 0x3d59eb49bceef8e0U, 0xbdb362d4be7c4be0U, 0xbdf03012be0cea5eU,
  0xbea7a885be4db63aU, 0x3e8a5827bc2ad379U, 0xbf7a8b18bd716b3aU, 0xbcab8ec33e207d70U,
  0xbe85102ebfc55c1fU, 0xbd4ca56dbf67adbaU, 0xbe8882b23d99715cU, 0x3e3bff2cbea0926fU,
  0xbf6d393bbca0593eU, 0x3d098d38c000630bU, 0xbe0d6babbc676170U, 0xbfda5a0a3c97b394U,
  0xbfabd7f43e345f1bU, 0xbe0b7711be7a2a8aU, 0xbfda22c53e235362U, 0xbed835f5bce9030cU,
  0x3e845e86bd8b20c0U, 0xbe86bb633c14cd44U, 0xbdd42e733df7c80eU, 0xbe9ab446beb47067U,
  0xbe3669263e10dc0cU, 0x3eac97da3e95e813U, 0x3e13acc4be447786U, 0xbe37589ebd9af413U,
  0xbe361ba03df1e22aU, 0x3e76309cbd58cbfbU, 0x3e236d273db1bad0U, 0xbe4eee8abdc615f3U,
  0x3dc7d7303eed12ddU, 0xbe2b036b3db4fcf2U, 0x3e004b803e41401bU, 0x3dbd3ecebe108253U,
  0xbf339bfebe03130fU, 0x3e0ecbe4beabdf82U, 0xbff0ab3dbcf92cfaU, 0x3ccdffa73e97aceaU,
  0xbf3bdc69c02c421dU, 0xbdeefc98c018c843U, 0xbfa0c6a1be1716eaU, 0x3e4b1888bdf6f7aeU,
  0xbf4569473db98446U, 0x3e4fb67ec0032fb9U, 0xbe355e163e3d531aU, 0xbf9ce4933dd696f0U,
  0xc00147bc3d1ed5caU, 0xbe84c202be55058dU, 0xbfea89fb3da80328U, 0xbf97f05f3dbdf767U,
  0x3e4939fabe8bec9dU, 0x3d385b4bbb988a4dU, 0x3d2e564bbe40c146U, 0x3dc7b9453db39068U,
  0x3dde7f65bdd4c079U, 0x3ca2bd43be7be24cU, 0xbe3c1539be15b245U, 0xbb37415b3cafab88U,
  0xbcb9256bbdbc4b8cU, 0xbde5ac1d3d8d8f13U, 0xbe61bf62bde62e88U, 0xbe7e740bbde225a8U,
  0xbe7428d73ddefe05U, 0xbe10393f3c5cd12cU, 0x3ddf65d9be13d579U, 0xbc9ebc393db34543U,
  0x3e30c86e3e0af090U, 0x3deb1507be050317U, 0x3db672893dba6077U, 0xbe8befc1bda6f932U,
  0xbe914aac3e397a10U, 0xbe88b9a7be8e8229U, 0xbe9cb78abe603b45U, 0xbd2886c0be58f17dU,
  0xbe596177bdd55e34U, 0xbe91e855be75775aU, 0xbd204e3f3e46685eU, 0xbe2d4d67bdaa3d7bU,
  0x3e0366583e1be6c1U, 0xbda5c9783d52c66fU, 0x3e3956713da293daU, 0x3dee2ecabe8e4730U,
  0xbe3df8c93d364406U, 0xbe82e70e3c81f629U, 0xbbf5a9933e4962bbU, 0x3db5473e3d3900e4U,
  0xbe51de78bbe3a780U, 0xbe2ba68cbe6cf3a1U, 0x3e539cd63d73547bU, 0xbe02bc913d96da24U,
  0x3c2b7f00be1bd22bU, 0x3e18f69abe2cb850U, 0xbd9198583e50b4edU, 0x3e37b4abbda5d350U,
  0xbe2a6368bdf17dccU, 0xbdb5b63abda63eefU, 0x3d3c4b203d283430U, 0x3da25fb63db80f5cU,
  0x3e988fa9be581ee7U, 0xbe3ca3ec3dad7e7eU, 0xbda742f13ca44aecU, 0x3e122644be917ac9U,
  0x3e2421aebde4e86dU, 0xbd4d86103e29bc63U, 0xbc00b858bd3a8992U, 0x3e8305933e98cb00U,
  0x3eb968723e00c876U, 0x3d83cbb23eaed694U, 0x3e657149bdde4045U, 0x3b9c4fa23dceca0fU,
  0xbd749b623e68819eU, 0x3e530813bc6aba82U, 0x3d4f0df23ef284c0U, 0x3df859e4bd4370f4U,
  0xbf1c08ebbee3b093U, 0xbe136828be46cabaU, 0xbfb1c643bd8df5ebU, 0x3d83d92d3cf87ed7U,
  0xbef7ba84be50d4e2U, 0x3d213ee4bfab42e0U, 0xbf866eb83d4fd207U, 0x3bca38d33da08016U,
  0xbeb56d983e0bc32dU, 0xbe1d41f3bfa290a3U, 0x3c4a2052be478f89U, 0xbfa3d31abe68b580U,
  0xbed17f013e2515fdU, 0xbc96a1a0be335993U, 0xbfa47f83be829547U, 0xbf617fab3dcce5efU,
  0xbe2c6ce4be251d78U, 0xbdce41bdbe992a88U, 0xbe75f710beaffc88U, 0x3cf2134b3ea244a2U,
  0x3cef11b4be9b4bd7U, 0x3d39f8493d9c45ffU, 0x3da0f84bbd05a733U, 0xbedfff4bbe80d577U,
  0xbe4ff248bdee1adaU, 0xbe5c780dbec79c47U, 0xbe2bdf803dcebae3U, 0x3c9efa15bccd7d1eU,
  0xbd8d95bd3d40ab21U, 0xbe6bb83dbe368068U, 0xbe82d023be50a969U, 0xbdb0aa31be386cfbU,
  0xbf87bb0ebef2d6cdU, 0x3e8af85cbec5482bU, 0xbfc47d5fbd738642U, 0xbc62af5a3e8e1946U,
  0xbf48fb78be985884U, 0x3e164bf0bfdfa340U, 0xbf81129c3e611c83U, 0xbfc3b1b8bee2ace5U,
  0xbe9339503e5778fdU, 0xbdb957f6bebb1aecU, 0x3e4d29693f0bb679U, 0x3e0dc03ebe2c8db0U,
  0xbe34892e3e4455e4U, 0x3e5cd8f2bed0a037U, 0xbe6f88f8bebb7cccU, 0xbf8f2ad13e638bceU,
  0x3e11de313db6878bU, 0xbe8beb65bda70746U, 0x3d4fc9e0bda1bbd6U, 0x3e69021c3dd252c7U,
  0xbcceaf14bddbb670U, 0x3c337facbe21cbffU, 0x3dec24e6be5b652aU, 0xbe747b10be8a5a9aU,
  0xbe5aa3b13c0be2eeU, 0xbe875ad3bdbed3d7U, 0x3e0bf0303e32c5d2U, 0xbe6931dabe683dafU,
  0xbd1f7390be4254bbU, 0xbe78518abd9c4255U, 0x3e06ee873e3a954eU, 0xbe7e4adcbda6b42eU,
  0xbd4f8e233d3c7ee0U, 0x3def515fbe3b5bceU, 0xbe93697cbe577325U, 0x3d15d94c3f50e417U,
  0xbe7fc870bd541e4cU, 0x3dad9a093dcc91f7U, 0x3d85824cbe128c61U, 0xbf1347afbe710130U,
  0x3bead7913e7d73b7U, 0xbd9aa32ebd465903U, 0xbea51eb93f17e431U, 0xbd903ee9bf4367b5U,
  0xbd97ae4ebdf04c60U, 0x3b96ee59be9d7899U, 0xbdea7b6abe8a0a26U, 0xbe30db81be03da71U,
  0xbecec555bdd153a0U, 0x3ecd9938be3c0a68U, 0xbe633064bd21108fU, 0x3e5dd4243ecc2d1cU,
  0x3dc0adacbe3d589dU, 0xbdc473c7bdcc143fU, 0xbe10c1173dc8a128U, 0xbf5290e43d3c4d37U,
  0xbe9f4c4ebe0d6c7cU, 0xbef7e075be015dc0U, 0x3e0f558a3e81d2c3U, 0xbd4bec80be9fd09aU,
  0xbe9618f33e0e724dU, 0xbe8fe706bd8a76f7U, 0xbe7a1925be882ef5U, 0x3d5c5d22bd82673aU,
  0x3e97a8993e06867fU, 0xbf39e960bd750029U, 0x3dedca913e3de04dU, 0x3da40cb8bf10a2c1U,
  0xbd0c2b483e28e5d0U, 0xbf14a7b33ee1bf7bU, 0x3ecf6361bd59cbc8U, 0x3c2284c5bd3a545cU,
  0x3c0589803ddef307U, 0x3e861512bde06e08U, 0xbf6fabaebef9f949U, 0xbe3737543e65b804U,
  0x3de5f478bfe5efabU, 0x3d0e0680be2fbdd8U, 0xbdc070903ea36622U, 0x3ecda9ca3e3026baU,
  0x3e051851be4a052eU, 0xbde413a9be492fdcU, 0x3ddf1f173e2ba6dfU, 0x3e0248d4be000f97U,
  0x3e84da653e55e675U, 0x3e71bfc53e99bdceU, 0x3db3d9eebde66db8U, 0x3de2f5293e5061e9U,
  0x3ea2f9a9bd0e06b2U, 0xbd00b02d3cd7a7f9U, 0x3e0abb60be273d54U, 0x3d8f896abee64f2dU,
  0x3e7a4195be1c3e49U, 0xbe9236913e264381U, 0x3ea506d2bddca9c7U, 0x3db7af53bd6c4205U,
  0x3e8ee4873d5010faU, 0xbe0ab5893d4de559U, 0xbdc2dff9bdba2b5bU, 0x3de056a43dd8db59U,
  0x3e88ac673e776cd6U, 0x3d91fb363c802971U, 0xbdd7fc693e12b2efU, 0x3e468e2b3e87d3d7U,
  0x3eba9f4cbe00915bU, 0x3edb408abdac7cc9U, 0x3db74fdebe2d15b1U, 0x3e1b39ef3dd45cdeU,
  0x3e36ae4c3e30f1e2U, 0x3de9b3713cad0751U, 0x3e20ca963e344627U, 0x3ea8bd433e511451U,
  0x3e114c84be19f580U, 0xbe820f63be03e385U, 0xbe37cc4ebe8298b6U, 0xbd9aa8213e092061U,
  0x3d16ae14bd48ad1aU, 0xbe1ccfdd3d8e2ae8U, 0xbe74e5d6be3b18f1U, 0x3e3693b3be1991b4U,
  0x3b1d1f61be8692b0U, 0x3ceca16b3e0c73bbU, 0xbe4323e7bdb0c4dfU, 0xbd8e8c35bd93086aU,
  0x3e2c0323be03fc90U, 0x3e0648f1bda47dd4U, 0xbe814b153e367fa1U, 0x3d15d6083e543c0aU,
  0xbef59bac3e09d615U, 0x3e54aec63e2c315dU, 0xbde5eb5f3dfa869fU, 0x3d6790f43d945ac9U,
  0xbdca417cbfc26003U, 0x3d0aa951bf16d1e3U, 0x3d35d88cbe6c178aU, 0xbd787ebb3e1aa9d0U,
  0xbf46ab4c3d9fabceU, 0xbe74cf5bbfc85401U, 0x3c0483c83c3b1258U, 0xbfc0fa7fbea58ee8U,
  0xbfb226bebd796d89U, 0xbeb9a606beadaeafU, 0xbfef11ee3e1db662U, 0xbefd0b203dcb0cf6U,
  0xbc4694bd3cf72472U, 0x3e1d57b43e166a8fU, 0xbd062d83be78aa74U, 0xbf7ed4893eb08bfbU,
  0xbdf5b6183e04b2ecU, 0xbf1a835cbe5f18baU, 0xbeb8e90dbf90e226U, 0x3dc7531ebe2b1716U,
  0xbf69bcc9bd54c3e3U, 0xbf0421fdbf1d8f60U, 0xbedf84fd3ee28368U, 0xbe87779dbe8db997U,
  0xbdc8f997be148512U, 0x3d5e40963df7203fU, 0xbeb4c98ebf07ffe1U, 0xbdacddf13bda9012U,
  0xbda23923be9b6fd1U, 0x3f3c669ebe3679e9U, 0xbde774a9bde28dcaU, 0x3e9040153f2e8633U,
  0xbc2698babe49b46dU, 0x3e3353e5be57434bU, 0x3e36f7673e206244U, 0xbf1408673e5607e6U,
  0xbeb41346bd9bec0dU, 0xbee1c526be8d4b12U, 0x3e4d71bf3f34effcU, 0xbdd52203bed71728U,
  0x3e1208bb3ea78aadU, 0x3e4bd6653d6dfdf1U, 0xbe42a318bf1793b9U, 0xbdb2df7d3e733672U,
  0xbe519904be172270U, 0x3c5d1419be6ca59cU, 0x3d165590be055d66U, 0xbdd904e63e334c68U,
  0x3d7c76a0be7f1eb8U, 0x3ddd2446bd30e630U, 0x3df57cf8bd07bd7fU, 0xbe410ddbbe423b6cU,
  0x3cfd3830be018f08U, 0x3e4a3b15bab66d00U, 0x3df8f0fdbe85d98dU, 0xbd1c9352bda8e9c8U,
  0x3d29afb53c3ddc84U, 0xbc0ae5dabe30f5fcU, 0xbd2305ec3db63670U, 0xbc9fefe0bda8c6deU,
  0x3d2c17d83c8c699aU, 0x3f46a0133db33f98U, 0x3dbed056be5417eeU, 0xbda0ca833f371e70U,
  0xbdd099f7be1d5b03U, 0x3e75d846be97fc6fU, 0xbde8b2773da7c642U, 0xbee555a43cff339cU,
  0xbdb141303dd4482fU, 0xbec9434ebe9ff112U, 0x3e24b62a3f4dbbbbU, 0xbdd3f8adbf049d2aU,
  0xbe89f9643e669800U, 0xbd34503bbd82f877U, 0xbe846ca5bed39b67U, 0xbe4fb1e3bdc9a95bU,
  0x3e525fdfbe45bc4aU, 0x3decc0ee3ce04fafU, 0x3e9c175c3dc51c5aU, 0xbef6b65abe80c915U,
  0x3e29fc5abe7088dcU, 0x3c584c0a3e89a1d2U, 0x3da4e34ebeeb2d6dU, 0x3cf175fabdc26aa0U,
  0xbe9a50f9bdef3d7aU, 0x3ea1be01be912073U, 0x3d0a55a13d6e8e30U, 0xbcfad8bdbc1bdaaeU,
  0x3e02dcc43da16102U, 0x3e1a8d90bd165a3fU, 0xbeabfbf13e8a6978U, 0x3e7975493ba6b27bU,
  0x3ec7ff2b3e6035ffU, 0xbf2f0972bdd4b65eU, 0x3d926df0bdcb45f4U, 0x3e5c23b3bf19ff8eU,
  0x3e647d643e309a0cU, 0xbf4964b63e6f5947U, 0xbd8150adbe3f6431U, 0xbd69a9c03d6d6a0cU,
  0x3d8cfd783e8dcbccU, 0x3e67a09fbe4a6e10U, 0xbf265222be89f5b0U, 0x3e7ce6303eeabf27U,
  0xbe2db388bfe4eb3cU, 0xbc909ca03da57b11U, 0xbdddf6803f0379deU, 0x3db498293e2829acU,
  0x3dc01d1e3d75259eU, 0x3e5430583e50d2b2U, 0xbe63e7aebe4cd90bU, 0xbe862f5ebdff04e7U,
  0x3c3db9c5bd301e88U, 0xbe44aeb23cb97607U, 0xbd6b51e0bbc90732U, 0xbec87fbc3b1f81f3U,
  0x3e093c83bc188ec5U, 0xbe05aac73c54b480U, 0xbd843b05be8569f4U, 0xbdcaa7613e5d1e20U,
  0xbe25e5ee3d3d76bdU, 0xbe56fa2ebcc10348U, 0x3dabdc293e4dc840U, 0x3d46c651bdd8f977U,
  0xbd8f49eabdcc4ef0U, 0xbdd65efbbd80029eU, 0xbde528c13e37dd0fU, 0xbc01590abe6f7b01U,
  0x3e213c39be920a62U, 0xbe453f013dd0721bU, 0xbe0d2309be4267b3U, 0xbe42eb713d9a41d1U,
  0x3dd780d83ce38c72U, 0xbe07e0883e013987U, 0xbd4019ed3d5dc621U, 0x3ca26cedba442f3aU,
  0x3d678c6fbda0b05bU, 0x3d4df6f9be1ac383U, 0x3dd2f46bbd954d6fU, 0xbd878390be8f4b01U,
  0xbe2eef9a3de96e71U, 0x3f0421d4bbc0312dU, 0xbdee67a63e2bc173U, 0xbe2336183f288623U,
  0x3d3260a3bdfda378U, 0x3d43ae92be0c9cdfU, 0xbe176bf53ddf93f6U, 0xbe8d509d3d1aadf3U,
  0x3cc6f42f3dbbecd2U, 0xbeccbcfbbeb45a59U, 0x3dcce6e23f5eeb40U, 0xbe869474be98ea56U,
  0xbe1bd1bf3eab3803U, 0x3ce8dfa83e1e027cU, 0xbe62e07fbf0012b5U, 0xbddebcd03e29169aU,
  0x3e0a3100bdca163dU, 0x3d37601bbe495c19U, 0x3df3142ebe087575U, 0xbdd16e6c3e05f9adU,
  0xbdfc36a2bd4b38ceU, 0xbdb49cd23d8979aeU, 0xbdc6c558bd4a1f95U, 0xbd086a31be0885aaU,
  0x3e17d4dfbe5a7626U, 0xbe38efdb3dc50d3dU, 0xbe361b0b3c12ff35U, 0xbe2a2d88be0c4ce0U,
  0xbe581d08bd7b3259U, 0x3e5fbf013e8dd3f4U, 0x3cccb3473ddba9f7U, 0xbe07c9893dc9e211U,
  0x3d15cdbf3e2d7a20U, 0xbe48b4943dd854dfU, 0xbdbbae8ebdff2163U, 0x3e27eb0b3e57d71cU,
  0xbd7edc4e3dd68ee0U, 0xbd258e6f3deb0574U, 0x3db9a6033c7a8500U, 0xbda820fa3def634bU,
  0x3d1b70803dc1b1d1U, 0x3e0e12443d5d1f20U, 0xbcb32900be18196cU, 0xbdd69624be00e3c0U,
  0x3e5ec160be4a0eabU, 0xbe3276acbe3eb958U, 0xbe33818ebdf39aa8U, 0xbe52455cbe6db210U,
  0xbd952f15bddb6c40U, 0x3dccaed83da929fbU, 0x3e53cca9be7204e1U, 0x3db62990be2cd3d4U,
  0xbe23d0d03e5e1474U, 0x3e4f7b783d933d11U, 0xbe3898eabd8c6d50U, 0x3dfbb490be7c1867U,
  0xbe5690b03dbf8ce2U, 0xbe5e927ebe7fd08cU, 0xbd7c6de0bdcc328fU, 0xbd9e1cd8be11d0c9U,
  0x3e6ad018be76cbe8U, 0xbe76ce40bdce4ab4U, 0x3e0125883ca750c4U, 0x3df09154be183068U,
  0xbdc1b7cc3deb0c9cU, 0x3f197945bc5e04f4U, 0xbe82c176bdfec3b8U, 0xbe1578343f6d5494U,
  0xbe4b035f3cd2fe6aU, 0x3e567dc3be8742f0U, 0xbde6db2e3e05bc1bU, 0xbe834215bd632a08U,
  0xbec294263e93db3bU, 0xbebdf8b03dcd3c8aU, 0x3df904c73f419244U, 0xbe943df1bf35a378U,
  0xbe85c3103c4f2fe8U, 0xbe3e8e4c3e1cf3daU, 0xbdb23640bf03ff1dU, 0x3db079553dff7aa0U,
  0xbd9eb6bdbe79218cU, 0x3e835679be89ce67U, 0xbe0684e83cf63d3eU, 0x3e8a54433f1af930U,
  0xbcfa4c7bbed6c46eU, 0xbdacbae3beb76011U, 0xbec9c68abe4ac279U, 0xbfedacc5be034c52U,
  0x3bbf60223d9f56aaU, 0xbf16195dbebbe797U, 0x3e67b8063e5cf2b3U, 0xbe4bd139bf2b7efeU,
  0xbec2245a3e0fd67bU, 0x3d9988be3da74e57U, 0xbe395aaabf3d6bfdU, 0xbe690721bd5512ddU,
  0xbca1f6b93e9317eeU, 0xbe614bc2bec4bf8aU, 0xbef44f47bd21c9deU, 0xbedb56a7beed3469U,
  0xbea59215bd8b1fb6U, 0x3d242d413e0d17dbU, 0x3efd6f7ebea68c24U, 0x3f27ca0c3dd177dcU,
  0xbdbc695cbdf570ceU, 0x3c0b6c5d3d6ae977U, 0xbe4d6d783ef8b11bU, 0x3df7a3563f4cdedaU,
  0xbdb698c3be28a979U, 0x3d46c47ebea60487U, 0xbdcc067aU, 0xbed2ae2f3f4ddb5bU,
  0xbe108aa2bd862ea5U, 0x3c0cc30dbcb9a8feU, 0xbc761a62bd607dbcU, 0x3e66b73cbe36f2fbU,
  0x3ed70a9b3e8c6030U, 0x3f19dbebbd30c5c8U, 0xbef0f7873ed7610cU, 0xbe97180c3e0a9757U,
  0x3e45caedbd9b1c86U, 0x3f4d0a2b3e232897U, 0x3f749fffbc2f30f9U, 0xbea6b35fba860b5cU,
  0xbecfa1a8bbb47975U, 0xbe42a40a3f64593bU, 0xbbf316ddbb2e5e5aU, 0x3ee572c63f42a3ceU,
  0xbdf3b266bd977154U, 0x3d138429bf1a1906U, 0xbf3c054c3e14d105U, 0xbebeeb14bc55e8e9U,
  0x3ca44935bedda15fU, 0x3e4f98013e13beeaU, 0x3e4d2250bd93e27fU, 0x3f454bd5bf7850bbU,
  0xbdcb90693a5b175eU, 0xbff4a226be31731cU, 0xbe64ff0b3e1ec3d7U, 0x3d9b9c2bbd1c6a69U,
  0xbe20c149beebc753U, 0x3d733f5abedb5c96U, 0xbe278968be29905aU, 0x3db3beef3f021ec5U,
  0xbe9a6968bf0f8247U, 0x3d51b7cbc00665c2U, 0x3c52c72a3d321db5U, 0xbe9d96f8bebfc8aaU,
  0x3e99d057bdca4173U, 0x3d00e24a3ad93bd6U, 0xbfec8efa3d12dd26U, 0xbe3553f0be0151a9U,
  0xbc5e2228be741865U, 0x3f13e1da3d0937f1U, 0x3f1dca9e3b55cda8U, 0xbff72c07bee98700U,
  0xbd85e0ecbd17811cU, 0x3def1ad73f07dad6U, 0x3c1b3d803d9dd500U, 0x3e9e7f533f211662U,
  0xbdfb56a53da49101U, 0xbdb0f552bdeb91fcU, 0x3d9b1e563d90677bU, 0x3e7e7777bdc23668U,
  0xbe258beabdb8fe88U, 0x3e4d181bbdc07df1U, 0x3d89fb473e0a9d01U, 0xc031be8dbc49446eU,
  0xbe6a7701bd99cb81U, 0xbeda58b1be9c45abU, 0xbe59bb183e4ce1f2U, 0xbdc242473d0542aeU,
  0x3cd8ab533dfab800U, 0xbc1786a83dc84ebfU, 0x3e645df03bb7ea21U, 0x3e5afcde3e3d7e97U,
  0x3e6e9dc8bd5adc8cU, 0x3dfd91e3beff92f5U, 0xbe82b49abd88b26bU, 0x3d08fedebe271785U,
  0xbe2ab2e33e086778U, 0x3dcd322fbe2e7abdU, 0x3db8c422bd1bf537U, 0x3e03ec8fbdf72d21U,
  0x3e472bc1bdd43bd0U, 0xbe5b29e43c767251U, 0x3e9add50bd8ac171U, 0x3de750d0bdc6963eU,
  0xbe493f4b3dc3485fU, 0xbe17213a3daa08e7U, 0xbe321ae83e67d135U, 0x3eb67e423cdb2f87U,
  0x3e20554c3d3f7624U, 0x3ea050173e8f16ebU, 0x3e9d35d43e6e8870U, 0xbe77d77ebe5edd8fU,
  0xbe43737f392f2364U, 0x3e8db00b3e815205U, 0x3e9d510b3dd772ddU, 0xbf802d383d8b56b6U,
  0x3eadee2c3cc2a01eU, 0x3e210be83ec567d6U, 0x3e15666f3d871c5fU, 0x3e63df62bea09b2dU,
  0x3e5b5f5d3d4068f0U, 0xbe0592993e7bfcf4U, 0xbdfb91a03e7cacbcU, 0xbeaced10bf093411U,
  0x3e936af3bd124b67U, 0x3e1840293d9da7feU, 0xbb8de6b9be6585daU, 0xbcc6dbed3cdf580aU,
  0xbf0e3e12bdeb3b5fU, 0xbde7e563be4ad808U, 0x3e035ca43e9fd543U, 0x3e384c4d3e9629d5U,
  0x3e4c4b023d81ed8aU, 0xbf6272013dfa3a75U, 0xbe0e94dcbe053887U, 0xbdf4ee603d39dd5fU,
  0xbe1d4682be3b92f3U, 0xbdc076f2bf1412a0U, 0x3e1b6b823e37dec1U, 0x3e8e0f2cbf84422fU,
  0xbd8a3af63d9e1202U, 0xbe22ae593e125d1eU, 0x3d8af0e33dd91a18U, 0xbdb5522cbd0a95b3U,
  0xbe4096223e5f76feU, 0xbebc1b97bd1f4880U, 0xbdab479a3cbb4c14U, 0x3f8f151d3f6cc9bfU,
  0xbf597cf0be9fe23dU, 0x40076df4beb6cae6U, 0xbe253a573e92dc47U, 0x3ddd1a0dbece478cU,
  0x3de3d50d3d07ce4bU, 0x3d0db836be90c1b5U, 0xbd900158bf6b8ac2U, 0xbd0a0ab4bd5d0b6dU,
  0x3e3086543f67f25cU, 0xbdb5c9e540102a04U, 0x3de4d0253e045556U, 0x3f4e08e03e296e39U,
  0x3f62ef7f3e09e9deU, 0xbe8913eebe3cdceaU, 0x3cd5a59c3d7db1e1U, 0x3ded4f2fbe26fa93U,
  0x3e26517a3ccedf9bU, 0xbdb106fa3e5fab40U, 0xbe9983cfbd09d720U, 0x3eaa0410bdad8e4eU,
  0xbe28d10bbe40262eU, 0xbe21b309bea3f8dbU, 0xbd5b83103d8fae8bU, 0x3e2c6ca5beb70faeU,
  0x3e2a1a34bcabb3b9U, 0xbcffec5b3d940d4cU, 0x3e9e75233e2eb7b0U, 0xbe8401be3dc1d49eU,
  0x3e12154a3dc27705U, 0x3db33f9f3e8f0e84U, 0x3eb798273dcc6137U, 0xbd74cb71bea7b944U,
  0x3e6f3e04be70a3bbU, 0x3e5d1d693e88fc7eU, 0xbe40ce87bdc63414U, 0x3e0017393e5d87b6U,
  0xbe4b7f3a3e2c9d11U, 0x3e286811bccc3e62U, 0xbded18b83e85bb75U, 0xbe42dc66bf6f2939U,
  0xbdc9269fbe92494aU, 0xbddea45dbd8590b3U, 0x3e1ae2853e70486dU, 0x3cc531483c8a4020U,
  0xbf32a9db3e28b759U, 0x3e22c0873c895c82U, 0x3e16bf313e642efaU, 0xbd631fef3e6daeadU,
  0xbd62f1df3e352507U, 0xbf703d693dc2a989U, 0xbf6dcfc3bc98e7f7U, 0x3daba206bdb9a81aU,
  0x3cbfb594bda4b95fU, 0x3dcf8284bf5bfb86U, 0xbe0189f9be673bdaU, 0xbeb5d86ebee2c609U,
  0x3d0b1f2cbd387987U, 0x3dd9a9a53eb0a978U, 0x3ec911db3de00ea8U, 0xbe1ac14ebcadca73U,
  0x3e8387423dae085aU, 0xbd86e5a13e5a2274U, 0x3ef8198fbc90eaf9U, 0xbebd1ca4bdee5d90U,
  0x3e86595b3e1aed80U, 0x3e6af4663dbf2cd7U, 0xbd3875db3e88cd24U, 0x3e476b683ea408aaU,
  0xbd9a157c3ebb0089U, 0x3e1503ea3ec9ff83U, 0x3e4f2db83c2a8027U, 0xbef6a6a8bf4ed932U,
  0x3e2e50353d266a62U, 0x3dbb90f83d6efa86U, 0x3d403a2cbe0a7ec2U, 0x3e6f73813d03087aU,
  0xbf1b567fbd183475U, 0x3e95839fbc4603edU, 0x3e957cf83d5c68b5U, 0x3ee24fdc3d41de85U,
  0x3e812429be047b01U, 0xbecd2a703ec57c04U, 0xbe9d8c923e635ac7U, 0x3f0097fe3e8ac7deU,
  0xbd629a943da3a88bU, 0x3e1927e7bed80e64U, 0xbd886d6cbe82ae5aU, 0xbd599056be918d42U,
  0x3e11ff8fbe1accceU, 0x3d90f764be53eb82U, 0xbcd795a33d96486fU, 0xbe1f698f3e41e811U,
  0x3e914e243da224e9U, 0xbe06a0483e242771U, 0xbcab84a53d36f1a0U, 0x3f20ebaabea1ee12U,
  0xbe2d9501be0c32d8U, 0xbfb9e26abe623e49U, 0xbd052c863dd49806U, 0x3dcd52273eef465bU,
  0xbe3699f63d67d1c3U, 0x3dfb09ef3d2bd6fdU, 0xbe2a2ed43e31d68dU, 0x3d81a9d63f6adca3U,
  0xbd8ecd28bf471a33U, 0xbe3dfc30c001a844U, 0x3e646e253e3d68fbU, 0xbe815b1b3ddfd42dU,
  0x3e4de6343dc929d3U, 0x3e2c1534be4ad97dU, 0xbe7057073e7a7725U, 0xbd3048ef3d9d6846U,
  0xbe905c2d3e09596aU, 0x3fa56dc53e0e3074U, 0x3f867606bdaffabbU, 0xbd914cadbd881244U,
  0xbdb8a3afbe2e0ca8U, 0xbe2848353fa399b9U, 0x3e7d80dc3dc7d1d8U, 0x3e0f7d333fb62714U,
  0xbe329e77bdb3af3aU, 0x3e257afc3d802d03U, 0xbe8f6b233e522dbbU, 0x3bfdf0a2be82d840U,
  0xbe143e393de1c805U, 0x3e627342bca70a47U, 0xbe87e8c1be7107a7U, 0x3ea2b15bbf5968fbU,
  0xbe1b450a3e0387b6U, 0xbfd2e45fbe4ef7caU, 0xbdddaaafbb8e9e8eU, 0x3e046a2ebe9713d1U,
  0x3dcbf682be99a9a8U, 0xbe44b1debc99a464U, 0x3d228a80bd0ea8d7U, 0xbc6b4dc23e334d3fU,
  0xbe41d96dbf3dcdbcU, 0xbe244535bffc008aU, 0x3e25c26d3d40a580U, 0xbef56fa3be861aecU,
  0x3e0d3f2e3d952b3fU, 0x3d8d9b4cbd127547U, 0xbe4d6a30bebed040U, 0xbe25b43abe60ee89U,
  0xbe8126893e20252dU, 0x3f162cd83e62a545U, 0xbd304a6cbe3d9342U, 0xbea528d53d8366b0U,
  0xbba2091cbdaf100bU, 0x3e333f4b3e99d1f6U, 0xbd9dda803e696704U, 0xbe029eb5be32e7e9U,
  0xbe3977243c8ac0bcU, 0x3e4eee533cdbb21eU, 0x3e52147d3dfd2608U, 0x3ce49330bdf8e6efU,
  0xbe2f299a3dbf937cU, 0xbd92a7afbe9296f4U, 0xbdeeccd0bcee7a2bU, 0xbe816f04bddbcca8U,
  0x3e0e3913be1cf5faU, 0x3e56e1d4bdc43175U, 0xbe65bcafbeb55597U, 0xbddfbd2dbe33f93dU,
  0xbe4a7a11bdcdddf7U, 0xbdfff6a5bd347947U, 0x3e27306cbe14bcabU, 0x3db39ab9bed3aec3U,
  0xbe23a4cb3d8bf75aU, 0xbe152d85bd1f8930U, 0x3e77c778be288fb1U, 0xbe6212a4bcb96c4bU,
  0x3e36ac08be4d3a22U, 0xbd1880ba3d619218U, 0x3e482b8a3d4ee51aU, 0xbe353395be96cb8aU,
  0x3e1fccbfbe1d9be1U, 0xbf08ffe53e5b946cU, 0xbe5f16d83cc6dfe0U, 0x3e31aa463e031811U,
  0x3e4d5311be10d3dbU, 0x3dc7b9d6bf4efdc1U, 0xbe46f0dfbe7bb4d8U, 0xbe58fd35bf13d5e6U,
  0xbe272fa03e65b612U, 0x3d5c28d9bc227addU, 0xbea161403e12d4b8U, 0xb712cfe0be3cf5adU,
  0xbe936c743e009744U, 0xbe8eda4fbd4df568U, 0xbc9258683eb08cbcU, 0xc00a8448bcfa70bfU,
  0xbd1b442cbe71335dU, 0xbcfbfc64be47b6c0U, 0xbde2e7a1bcb2dfb3U, 0x3aa44c323d4fdf7dU,
  0x3e9e6e8e3e8e4146U, 0x3e3f18ce3dc08a4eU, 0x3c1aa480be9999f3U, 0xbf2ba1723ec64fe5U,
  0x3e98c7253ddb26f4U, 0xbddab287be060353U, 0x3e4fc34f3e23c8b6U, 0xbeba51b93dc7d9a3U,
  0xbf4e8344be3bdd90U, 0xbe1c98163dc2316eU, 0xbe69ccd83ec23f76U, 0xbda376543dfb96c1U,
  0xbccf07c6bd9befbdU, 0x3e282c03be84a2a4U, 0x3edb841b3e79d731U, 0x3c550b573e129fb3U,
  0x3e107161be330f44U, 0xbd369f633e85a737U, 0xbdaa65703e657c01U, 0x3e303b5abe7abfa4U,
  0x3dce64c3bdc38066U, 0xbee224f3bf6e1817U, 0x3e3b7a07be0b07b7U, 0xbf12e67d3e3f153fU,
  0x3db92686bf199d58U, 0xbf19e2b23dcec8b1U, 0x3e28a763beb176a2U, 0x3eba9ecc3f6efd63U,
  0xbfd28715bf509e7dU, 0x400884f5bf64d298U, 0xbf505b203e7dc7d6U, 0xbf2e03ecbd406d3cU,
  0xbed05f54bf399e80U, 0xbe98bffdbf23d688U, 0xbdda4008bfc05072U, 0x3c96256b3e63ef23U,
  0xbeb079c83f554adcU, 0xbdd874a04004ce12U, 0x3e2a440a3b9a7994U, 0x3e9cb16abf3ab028U,
  0x3e86030abe89b337U, 0xbe89e7993e49def5U, 0xbe822531be60e328U, 0xbed5ff2ebf475514U,
  0x3e19984d3deb1a10U, 0x3eb3793abf461f30U, 0xbdb423d3be37471cU, 0xbe66ad6cbf8d5460U,
  0xbd9defa2be1fb797U, 0x3e749a6b3d89bc7eU, 0x3e217438bdfa50e3U, 0xbba20f3f3e629092U,
  0x3e53f8093cfb210aU, 0x3e1079a63d392980U, 0xbebce8303bc57e7eU, 0xbe46ddbfbe3471fdU,
  0xbe47dcd83d5f4ca7U, 0x3e706c17be87f66cU, 0x3e2c27a4be0cfa48U, 0xbd750f9dbf93f175U,
  0x3d3846c33e5b7947U, 0xbff5b4713d8685d8U, 0xbdb31f7abe59c742U, 0x3e5acdbcbe1b1797U,
  0x3e29f056be26f0eaU, 0x3d93a09cbe47251cU, 0xbe4b9918bdf3e74cU, 0x3e33b67f3e923590U,
  0x3d5273e3bf081e43U, 0xbdb0227bc0085240U, 0x3e592cea3dfcc42eU, 0xbf0d93b3be68a39cU,
  0xbd956884bdee1b14U, 0x3d796ebf3bb4b0fbU, 0xbf4b00b53e4b50a7U, 0xbe0bcf30be23ce51U,
  0xbeb36ebd3e29c79dU, 0x3e41205a3e6aa66eU, 0x3dfa0e623d920d26U, 0xbedb9a53be9cb916U,
  0xbe8b3d0d3d40b09cU, 0x3dd37f083dce6a3fU, 0xbe6cbb18bdbc17feU, 0xbd4c0a0f3eaf94c9U,
  0x3e2ddc4f3d24cd3aU, 0xbf91bb56bf316d42U, 0x3d09e9adbe6d7d14U, 0xbe73d8e13b02fa4fU,
  0xbd893f49bda79bd4U, 0xbfd60e603ce4817fU, 0x3dbf6036beadc909U, 0x3d0b54233f6e487fU,
  0xbfc98766bf87a6beU, 0x400ab71ebf4a6ac6U, 0xbfa7089a3de17028U, 0xbeda37f63cdb4cd1U,
  0xbd695a96bed4e647U, 0xbdc00d52bf5a8f35U, 0x3e465b0cbfbde66cU, 0x3cb247e03d04a023U,
  0xbe01ee703f3e222bU, 0x3df7de983fdee94bU, 0x3da1fa90bdc9c07dU, 0x3f3e5ed6bec8f3f2U,
  0x3ef412d4bd2772f0U, 0xbe09432dbe603f98U, 0x3e5826b6bd4a4254U, 0xbedc8297be659a16U,
  0x3d8757323e15473fU, 0x3d1d0d3ebe03f3ccU, 0xbc5d9a213e56d8f8U, 0xbd8cc30dbea0fc28U,
  0xbe6c6a81be59cc97U, 0xbe926e48bc940d0cU, 0xbe27b990be70fb75U, 0x3e066f3b3e9b8490U,
  0x3e3e0db03ca90b0aU, 0xbdbb8574bd8ed97eU, 0xbd3aa4d4bde7e3e8U, 0xbcc27db43e08a0b9U,
  0xbe0e7e283e381df6U, 0x3d467e283de8ca48U, 0x3e0e9020bd6fbb0bU, 0x3dbc0592be019210U,
  0x3de53342bda62e43U, 0xbe37a2e8be867419U, 0xbd88c29f3e516eb2U, 0xbe57ca1b3e03a846U,
  0xbc26f3ad3dbbc1fdU, 0xbdfd8886be374e4eU, 0x3d61ec30bdc14544U, 0x3da8adefbe2281f0U,
  0x3db98b42be2382eeU, 0x3e170a883e4754a4U, 0xbd3dbde03e6a3d90U, 0x3d8648edbe376799U,
  0xbe4f4a68be199e20U, 0xbe2da920be3b73d8U, 0xbe2cf2783df45631U, 0x3e40b10cbd320d63U,
  0xbd4c6c5f3d186e24U, 0x3d514ba03b305ea3U, 0x3dd4ae88be2be3a0U, 0x3e6c8a9abdd9e036U,
  0x3df5357c3dc1b190U, 0x3e6600f1be5f9e1fU, 0x3e41681c3e3090e8U, 0xbe2e78d8be07a5a6U,
  0x3dcd4540bd91f168U, 0x3e148ac6bda046c0U, 0xbee7c3013e63db67U, 0xbd97c1a7be9c8ad6U,
  0x3e03bea9be8aa488U, 0xbe98e06b3e9777b8U, 0x3e691ec13e826ee6U, 0x3f355786bec10cf2U,
  0x3c169fc0be2163fcU, 0xbfa8b35e3e4c66f4U, 0xbe34c2283e36e221U, 0x3e01670e3eeb7290U,
  0x3e21b463be8f6d80U, 0x3db98c91be1f69bdU, 0x3db45618be5cadf8U, 0x3e1df0a83f2846ebU,
  0xbd039c23bf18a407U, 0x3e1d2825bffc4ba1U, 0xbe5d1d31bded9d60U, 0xbeb9d589bdfc0b6fU,
  0x3eb9c088bbd66bacU, 0x3e8054b6be6538b1U, 0xbf2dc1513e700abfU, 0xbe42ced6bcab303bU,
  0xbdc8bb53be5bb78fU, 0x3f87af96be3eaf55U, 0x3f227d0abe22ea53U, 0xbf16caaebd906938U,
  0xbdbd14a7be8d2cc0U, 0xbcba662e3f764f97U, 0x3c190bc03dc6baabU, 0x3ea243993f733b70U,
  0x3dedd4323e8ff1acU, 0x3daa3bbd3e4ad827U, 0x3e9297e4be2b3314U, 0x3e130c943e4037d8U,
  0x3e2af2293e5d5166U, 0xbe1b5f203e554c22U, 0xbe08733abea136d2U, 0xbf72d0da3ea266c8U,
  0xbd78ae8d3d767d80U, 0xbe6a1af5bde81b4eU, 0xbe106bc93e8f0458U, 0xbe343591bdfea1a8U,
  0xbe5c1e19bdc9b08dU, 0x3e820a503dc37116U, 0x3e648b743d89b14dU, 0x3c5bc21bbf6fc1a5U,
  0x3d74af913e527eefU, 0x3db38696be1e1154U, 0xbe571bf33cfe6369U, 0x3cd0dc9abdc253e7U,
  0xbecb4089bd438b9cU, 0xbe4b258abe658a85U, 0x3eac53d83cf05748U, 0x3e272da53daefdf9U,
  0x3e076cd83e68459bU, 0xbf90d648be0de114U, 0xbf64e80d3dbcad42U, 0xbda975253cca953aU,
  0xbdb92b14bdd78210U, 0xbe5a8f9dbfc04675U, 0xbcca565a3e813ddeU, 0x3d876488bf82fb27U,
  0xbd5de7403df1a5f9U, 0xbdac21a83b5a3007U, 0x3e6d73403d309590U, 0xbe0bc4443db80358U,
  0x3ce3a6fb3dc74432U, 0xbe408a68be3efcebU, 0xbd8e301dbe24b4f3U, 0x3e21083fbd41915bU,
  0x3e784e7cbe3dec6cU, 0xbdbd70e03e535facU, 0x3d6d0250be6dbff6U, 0xbdefc4403e5ba413U,
  0x3e2ce27b3c91e44fU, 0xbb18124abe78b070U, 0xbd398260bdccf948U, 0x3e717644be569a12U,
  0x3ca448c03dce0b32U, 0xbd1957e0bd7970a0U, 0xbe3cc8f0be182238U, 0x3e28b7a3bc0efa40U,
  0x3e22f607bd74ee5eU, 0xbbdf52dcbdbb4498U, 0xbe12ab5c3e00ad70U, 0xbe6768b4be0bcea8U,
  0x3d03ea68be4a9760U, 0xbdd4e0c23e27cd34U, 0xbd105240be2a8e8cU, 0xbe272fdcbe72dde0U,
  0xbd836d68b9382000U, 0xbd967798bddc599cU, 0xbe25f3f0bd6f9040U, 0xbdd0a50c3da64c3eU,
  0xbe687f48be54343cU, 0x3db31d103db7b2e0U, 0x3c21da803d6bb6d0U, 0x3e431cd4be0d9794U,
  0xbe4cbb7cbcbbd6c0U, 0x3dbe4940bd7a58a0U, 0xbe16faa03e42a520U, 0x3e3c2d58bd021160U,
  0x3d0dec903d942260U, 0x3e073a1c3dd750c8U, 0x3b806380bd953fc0U, 0xbe6dc788be5e07b8U,
  0x3da2daa0be2a099cU, 0xbe10fec0bdee0698U, 0xbe77c170bd0e4eb0U, 0x3b67b600be461274U,
  0xbe49ee8cbdc3cb70U, 0x3de368983dca1440U, 0xbe7fccd4be0f9c10U, 0xbe79266cbd968170U,
  0xbddd49083da4dc28U, 0xbe4d382cbddc5508U, 0x3e1e91f8bd702920U, 0xbc892940bdf5be48U,
  0x3e2c4decbe330378U, 0xbd467b003e2bee48U, 0xbe5d4b843d916800U, 0xbde425603e176f5cU,
  0x3c77a1003d932878U, 0xbddf7198bd8e0688U, 0xbe0874ecbe083c40U, 0xbd69be503d8768e0U,
  0x3e114bf43df23dbeU, 0xbfb34954bf82ebdaU, 0x3e344788be5328acU, 0xbfa845b23bf1eb80U,
  0xbeccf422bf786455U, 0xbfdf93c9bc3b7296U, 0xbc80afd8bda4dd5eU, 0xbc59b8893fad5ee2U,
  0xbfe5346ebface171U, 0x4012d3cebf47cc2bU, 0xbfdf2ecb3e9fd23eU, 0xbfa33996be1e3674U,
  0xbf5a7f78bf81fbf0U, 0xbf2b0ebabf922073U, 0x3e386938bfd87b76U, 0x3e5e16883d748f28U,
  0xbfa7dabb3f4683b3U, 0x3daf51ad40119e2aU, 0xbe2bd56e3d668194U, 0x3f10b37dbf208b48U,
  0x3ece4a873c5d47ccU, 0x3da9d0bfbdd6378fU, 0x3c3265803e38d558U, 0xbf8aa1e6bfab5a37U,
  0x3ee2d255bdde3559U, 0xbd86dc17bf3403e7U, 0x3e416d983e4449d4U, 0x3cb62f80bf9f9a34U,
  0xbfe70593bf97dcb4U, 0x3d37218cbd90650eU, 0xbe1e8fb83c20f000U, 0x3e4af0cf3d8d1a75U,
  0x3e63d0a63e0c0e6cU, 0x3ba685e73e768587U, 0xbe2b08bdbdaca0a9U, 0xbd35406bbe6d912cU,
  0x3e5aa1bbbc27ad5cU, 0x3e0c89cf3d72f275U, 0x3d9231d2bdb386c6U, 0x3efad168be4ae8fdU,
  0x3df091ed3d82a213U, 0xbfb4dc3a3d1003c1U, 0x3bae5fb43e58a3d2U, 0xbdc66cae3ec934a2U,
  0xbe2da0a8be31eab0U, 0xbdb90d103da2bc33U, 0x3da0c558bce81f2bU, 0xbcac9e113fcac4f2U,
  0xbc29f212bf087c1aU, 0x3d8f357ebff23382U, 0xbdc06465be0642f8U, 0xbeaff391bda4364dU,
  0x3f2e8543be17b954U, 0x3d853046be5173b9U, 0xbe40c45bbc4a73f0U, 0x3e60afbdbe48fff3U,
  0x3d89b53ebe414eedU, 0x3fcf8abd3e5ff26eU, 0x3f91a3debe598144U, 0xbeee04913e678633U,
  0x3be3714e3d10ad4fU, 0x3d8602d53fba13a1U, 0x3e31a6743e5dd558U, 0x3ce96a6a3f909b49U,
  0xbd39f950beb232ceU, 0xbf4f681fbfacca94U, 0x3d79b3e83b3be2bcU, 0xbf1ac55e3d5b49bcU,
  0xbe886c4ebed152c3U, 0xbf9c14523cb43049U, 0x3e3e3e76be36299eU, 0xbbf564e83f694e9eU,
  0xbfb63dcfbf0cc679U, 0x4017e882bf7e3ca3U, 0xbf8985fa3e4513ffU, 0xbf641528be376c97U,
  0xbe889eb5bf3c9f3eU, 0xbdafe9cfbf0fbbccU, 0xbe12c444bfc0a7b9U, 0xbe0ec8ed3e6b5787U,
  0xbf3146e23f7552d9U, 0xbe88fb06400aa622U, 0xbdd8fef13e3fde7dU, 0x3eec6e12bf3d2b49U,
  0x3ec01ebf3dd76fb8U, 0xbe165910be5b2173U, 0x3d6c84783d314706U, 0xbf07cc6dbf1ad8f3U,
  0x3f2f99a73d7528b9U, 0x3e7dc7bcbf7479ceU, 0x3e8d4072be3b824fU, 0xbe102ab0bfb45ceaU,
  0xbddf6124be89a550U, 0xbd3cf400bcbd0a2fU, 0x3e30ed503d56d05fU, 0xbd223bfa3d99a04aU,
  0xbdcd6bf03d005ac3U, 0xbc1d77ae3e852b73U, 0x3e74698cbcb576c0U, 0x3e1c7fb4be258e53U,
  0x3e4cd87dbd9b2a4fU, 0xbe42337c3c53e9b3U, 0xbe81763b3d93fbabU, 0xbf97284abe2730ccU,
  0x3cd45e41be2c1c7eU, 0xbe0c8323be3ae0edU, 0x3e419333bef5019fU, 0xbd29bfedbe5d1c16U,
  0xbd12b804bd1b0475U, 0xbe1acc913e863d2bU, 0xbd00bce0bdbf9a1aU, 0x3e4f55d5bfca8869U,
  0x3d2113b1be3d2a57U, 0x3c8b08d9be61c965U, 0xbe51213aba84db3bU, 0xbe19a37c3e5030c7U,
  0xbf3606aebe5996f2U, 0xbe08a1c43c39dc46U, 0x3dca6770be749639U, 0x3d875be5be041416U,
  0xbddf48b5be264574U, 0xbfbbbcfebdb8f96cU, 0xbf84f31e3da67e80U, 0x3e1f343d3e68f574U,
  0x3d186160bd80c77eU, 0xbd077974bfa21c66U, 0xbdb94b1f3be7bf9aU, 0xbe32cb71bfaddb6fU,
  0x3e610f74be7767aeU, 0xbd33a7d038bfc90eU, 0xbe195f383e078f9cU, 0x3e3282163c7d9de3U,
  0x3dedffd13e1abde0U, 0x3db0feb0be70164aU, 0xbd1bf0c0bda20ca4U, 0xbe7dde9cbd82aca0U,
  0xbe0c204cbc952b80U, 0x3e6092243d838308U, 0xbd2319303ce32020U, 0xbe12d5d4be6b3de1U,
  0xbe680d09bde8dcb0U, 0xbe763c4a3c237716U, 0x3de71688bdba64d0U, 0x3e0aa758be1c5412U,
  0xbe35afb43e080602U, 0xbdf8d54e3ca16a20U, 0xbe6b3a24bd314b20U, 0x3e729f743d98b816U,
  0xbe059f5c3e571f24U, 0xbe2861a5bdcf16c0U, 0x3dc020763e3a329bU, 0xbe4cbe4fbd04b6abU,
  0xbe352fa7be4c7b87U, 0x3dcb15a8be102381U, 0x3d5c91b83e0bdfe0U, 0x3e4a74eebd94d429U,
  0x3d0ec1363db32fd7U, 0xbe119993bdb6f1b3U, 0x3e6b329fbe51400cU, 0xbb158c253dcff5e0U,
  0xbda66158bd5d0980U, 0xbe0e66fcb9999121U, 0xbcc7ce843e351d84U, 0x3d2eac653cee4d11U,
  0xbd67eb5fbe1265bfU, 0x3c953500bdc4ef2fU, 0xbe549ceebe85dd2bU, 0x3e116ee0bd03f2c0U,
  0xbe501e50bd116560U, 0xbe7426d0bb8e4a80U, 0x3e1c6af03c87d0a4U, 0x3d93b193be69eb73U,
  0x3d8df8823e46983dU, 0xbe050056bdf52e3cU, 0x3e2d2c483e196670U, 0x3dd09ee8be679289U,
  0x3ddfc3c8bc542d07U, 0xbe53f91fbe79bd78U, 0x3e3d7dd43dde7978U, 0x3e7b1298be8ea81bU,
  0xbdd05d383d9bad25U, 0xbdbd12a83da07a08U, 0xbc9c6cb53d243e06U, 0x3d1c8186bd2e18c0U,
  0xbb9f17083e0d23a4U, 0xbe8916a8bdd35a87U, 0xbd337f53bd8cbc10U, 0xbced44d9bd9d22c2U,
  0xbe65c752be04c005U, 0xbc9d4e60be70637bU, 0xbd40cdd0be668654U, 0xbe242c973e0cb388U,
  0x3dc3e940be5ba315U, 0xbda9a3033a2277cbU, 0x3e43b2ce3dcc2d90U, 0xbc01862f3da31e67U,
  0xbe793973be4e85d2U, 0xbd3f5c1bbc0e38f0U, 0x3e27c627be37ba69U, 0xbd2c31b8be750982U,
  0x3bd10e3a3da140daU, 0x3d972d683e274b33U, 0xbde793e33d1cab0aU, 0x3df7dee33df95120U,
  0xbe66868d3e3c520bU, 0x3e5501ea3dd68074U, 0xbe368290be417b8cU, 0x3d72128f3d13802cU,
  0xbe6d48afbd2a63b6U, 0xbe27760fbd82ef88U, 0xbd2df0b03d0795d0U, 0xbe3dacafbd00e101U,
  0xbdaebeaebd5aa89cU, 0x3dfeddba3e1f6ea8U, 0xbe5678b4bc972e32U, 0xbe5856a9be84b6ddU,
  0x3e5c57053e724430U, 0xbe52f3093d54b28eU, 0xbd7c21e63d0e9750U, 0x3e4d6730be1d3bf5U,
  0x3e2b61d63e30ee37U, 0x3dc6ac92bd607ed4U, 0x3e10cb38bda07978U, 0xbe295d213e19bcb2U,
  0xbe5ba69b3d9595eeU, 0xbe8f7e98bf14d81bU, 0xbeff6266bdf6a4d5U, 0xbe71aa9dbee2ecf6U,
  0xbe2fccf5bee461d4U, 0xbdfbf6fbbda53d73U, 0x3e894569bd0aafd7U, 0x3f613c2d3cf34187U,
  0xbe72a412be13c0a6U, 0xbf9e9c18bc4e51e2U, 0xbe076e393e3abaa5U, 0xbe21b1743ebf2f78U,
  0x3ca79fc9bf21549bU, 0xbdd7743cbeb8bbefU, 0xbddc8358be8a75f8U, 0xbe2f85b73f3815b3U,
  0xbefb2738beba9fcfU, 0x3e1c992dbff9fc8fU, 0x3d362182bdf26efdU, 0xbdeffb2cbee28fd9U,
  0x3ebb9a093de31fb3U, 0x3dfc94803dc2f933U, 0xbfd108ec3e9fc4d9U, 0xbeda522abf0432a0U,
  0x3e1a3b413e2330fdU, 0x3f2906553d9f3f87U, 0x3f3f70ca3c8d068dU, 0xbfed1739beb00dd6U,
  0xbe045cb2bdd316ecU, 0x3d6e4dbf3f32ed0dU, 0x3cf76f20be0d275cU, 0x3e6177fc3eeb0a9dU,
  0xbd64fbe93dcc19d8U, 0xbc783da33e7c2826U, 0x3d9a3f0a3e6758bdU, 0x3e54c6cdbd765020U,
  0xbdb39a743c338815U, 0x3e2730313d414829U, 0x3ebee8a93e86e424U, 0xbd854009bf4743c9U,
  0x3db71a8dbd43d514U, 0xbfea60ba3e3f4b10U, 0x3e383588bb7557f1U, 0xbe0cd3cb3ea79cfbU,
  0x3ea4d82b3e29efceU, 0xbbfd40d0be5051e3U, 0xbdef06b83dc968b9U, 0x3d8859273f0a5844U,
  0x3e456157bf0ba551U, 0x3dfd220cbfd5ff0bU, 0x3d37a0b13dbb6e78U, 0xbea7d9203e75ddc4U,
  0xbe2553a83e035412U, 0x3e9b231cbd7fde1eU, 0x3bcd34913eb28f16U, 0xbe41794b3de89416U,
  0xbe8d3daabe61b66aU, 0x3e1731723e21f420U, 0x3f3f37fbbd5db730U, 0xbeb350b13e514976U,
  0x3d5a74313d18efe3U, 0xbe04d6643f17a2e9U, 0x3e3e3ed6be3e3631U, 0x3e8769cd3e6eb86aU,
  0xbe642dfabe111739U, 0xbe9192febeb9cdd6U, 0xbdb5e575bdbc5f97U, 0xbdd99e233dd37bcbU,
  0x3dc8ef56bbbb7bf7U, 0xbea3bec0be38f9eeU, 0x3dd0bd78bebac791U, 0x3dd673453f72f99aU,
  0xbfb9966cbecc3bdeU, 0x40171ed6bf318300U, 0xbf382536bdc8e576U, 0xbc6a91c3bc72da91U,
  0xbe878efebf0b72b7U, 0xbb2a309ebee8f9e5U, 0xbe151260bf96de02U, 0x3d1f58f73d558faeU,
  0xbe9b331c3f31bdf1U, 0x3c9d80d73fdf5b5eU, 0xbde9a9fcbe032378U, 0x3e934f64beb253faU,
  0x3eba25f03ddae7edU, 0x3d9e34d8bddeb769U, 0xbd96e7cd3df5e1faU, 0xbf02ce88bf0fdd05U,
  0x3ea700babe675750U, 0xbdb4a3dbbecc8af3U, 0x3cfee5dabd7d2d53U, 0x3e3ad5e9bf1578b6U,
  0xbe39d745bd24b919U, 0x3d9833eabc95ae8dU, 0x3cd12b20be4ca2bdU, 0x3d351dcc3e1de1abU,
  0xbd31f67a3ca1dbcaU, 0xbfb22689bf373068U, 0xbda49f57be5cd3d7U, 0xbea565383e35437fU,
  0xbe3672bdbec9fc84U, 0xbfc2d6e4bdcfa4a8U, 0x3d5d66b3be33a0d2U, 0x3e97e1783f738462U,
  0xbfe8ff9abf8aa38aU, 0x4004d340bf585fbeU, 0xbfd3bee13d66dabcU, 0xbd909694be27773eU,
  0xbe9723bfbef210e7U, 0x3d2b5eccbf5aa676U, 0x3e126a5cbff2fc8bU, 0xbe5204343e83bd43U,
  0xbe8f8d7d3f583be4U, 0xbe751d7c3ff1ba8bU, 0x3e36cf063d048fbeU, 0x3f3dd9f5bf008115U,
  0x3e0bbeb0bd2ed958U, 0x3c75f7fd3e520dadU, 0x3d066a1d3d0f8bf8U, 0xbf319ae5bf417da1U,
  0x3e52fcd4bdb14dfaU, 0xbbc0ef45bef5fefcU, 0xbd5377e63e50a8adU, 0x3e30640fbf152154U,
  0xbef43fec3cd4bacbU, 0xbe92c3343dd8657cU, 0xbe01a994bdfd3778U, 0xbd21f33e3e3608acU,
  0x3e3285dcbda5fb88U, 0xbe0a17eb3ed83292U, 0x3dab825f3e782c74U, 0x3e0c482bbde4725dU,
  0xbd4c5f9dbd9e1685U, 0xbe33b69c3d8cb966U, 0x3e58e23b3e1dc1faU, 0xbf04b5773cadf925U,
  0x3ea97bcebd230f18U, 0xbe1cc2303e1e4aa9U, 0x3e39ae4a3e48c36eU, 0x3de005f33e452516U,
  0x3e9d88823e8554efU, 0xbe43759f3ed3bb3fU, 0x3e2a1104bddd7d02U, 0xbdf14fd1be9daebeU,
  0xbe04503cbc4ccd3eU, 0xbdb699b93e1f70d0U, 0xbe2b2207bd856e57U, 0xbba3462f3ea46228U,
  0xbeb59453bdca5074U, 0x3eae1962bc646901U, 0x3e90b0763e7658d8U, 0x3e1860db3e24effaU,
  0x3e11a3ad3db965c6U, 0xbf1363a33dccacf2U, 0x3cf3e3a7be7b4799U, 0xbd90c5e73e4d181aU,
  0x3d7dc3e4bea6afe2U, 0x3d46205dbe8a3d3cU, 0xbdf642e5be6ce72dU, 0xbdd20360bd9aea1dU,
  0xbe1845c43e3fee82U, 0x3e5dc2ccbd147540U, 0x3d62a0b53cd33be0U, 0x3e32bc33bd783961U,
  0xbe6c854abd580f5fU, 0xbda11d67bdf02f11U, 0xbe65447b3dc512a8U, 0xbe1b2dfd3e8467c2U,
  0xbe6e4cd03e57dd4aU, 0xbe1a1d673ddd4690U, 0x3dd4ee80be9a309aU, 0xbdf8be55be049807U,
  0xbdc577373e0cda23U, 0xbe069d2e3cb8236eU, 0xbe4d8a64bb0cc1e6U, 0x3ecf8000bf233e26U,
  0x3d6e2b0bbdd805bfU, 0xbe2bf22dbe7f8ee0U, 0x3b0537b6be01ad84U, 0xbe63f3d7bde1bc24U,
  0xbe520f77be85b97fU, 0x3e6c930a3e418b74U, 0x3d05374e3e250d40U, 0xbe5fbeafbd7de9fdU,
  0xbd6f3979bde86c40U, 0xbe3623e63e277e54U, 0xbe32cc9e3e051948U, 0x3d95edeebd18d241U,
  0x3e1a7c753e754366U, 0xbe46e159be8e5544U, 0x3c6c93c0bdc78208U, 0xbeb6ef53be416ecaU,
  0xbcb038a0be24422fU, 0x3cf02981bd27e87bU, 0x3e45f1573e413b98U, 0x3d4282d03e1442adU,
  0xbe2dbf0d3c42297fU, 0xbe0f2d4c3bdc551dU, 0xbc5804cf3e6c5081U, 0x3c9711edbe48e5b4U,
  0xbe7c3f35be7d8c25U, 0x3e29014cbd7e5fd1U, 0x3e0483e9be25ef36U, 0xbe077c78be1567baU,
  0xbe386507be645f67U, 0xbe1c203d3c9b71bfU, 0x3d6d92f03ddae102U, 0xbe3681cdbc28b8c0U,
  0xbe4eff38be0d3a74U, 0x3e34b20fbdd6c1d8U, 0xbd97eeb03cc6dc20U, 0xbe20282bbe3ec989U,
  0x3e47e74cbe19ae5bU, 0x3b2acbf83cb5afc0U, 0x3dfd63d8be6e7795U, 0xbd89867abe34839bU,
  0x3dcfbac03e5bfd40U, 0xbe3853d4be15e75cU, 0x3e7352543d771710U, 0x3bd10c803d0bf7b0U,
  0x3ce904bf3e3cd82fU, 0x3e6e39d9bcb36d40U, 0xbcedb7603e110120U, 0xbe586c70bc96b175U,
  0x3e0fbe983e537918U, 0xbef76e26bedc95c8U, 0xbe7ad7dabefd0067U, 0xbd5c90b03f348e5eU,
  0x3ed097bdbe55b63bU, 0x3d7de2c33c9f03fdU, 0xbc9e6d32bc8f39ecU, 0xbf3632f73ecbd443U,
  0xbc0d3f3dU, 0x3f599b5bbc31d6f6U, 0xbf4b136f3d46769bU, 0xbc35791cbccbb1fbU,
  0x3e0282bcbcb193e6U, 0xbb8ecf8d3ed69c86U, 0x3d4c5c3e3d4cef61U, 0xbbc4c759be379805U,
  0xbf105c4c3b09beefU, 0x3f901ec5bf01b9daU, 0xbeb99d9ebeb63a20U, 0xbe1bab3a3e2b6aacU,
  0xbf1e84b53e3d2379U, 0xbf3559b93f1ce9a0U, 0xbd9694993f120010U, 0x3e6d0bf73ec1469fU,
  0xbd63f160be8bcfe7U, 0xbd35be663faa4b9fU, 0xbcb1f2173f6781beU, 0x3dc8175b3cdda489U,
  0x3e01b3b63ec8dcbcU, 0x3f1177c7bee74634U, 0xbf6b6e233f30563aU, 0x3e047bbe3ddb1f8dU,
  0xbef7d6123f9ae73cU, 0xbf82602abef8979bU, 0xbff4bd86bfbf9bd4U, 0x3e2dc3e33ebfe2c7U,
  0xbf0420afbe844b5dU, 0x3e686695bf82b54aU, 0x3ec372c1bf1a8717U, 0xbd92214a3f24218aU,
  0x3eb4ca823eb099f7U, 0x3e7875c6bfc306ddU, 0x3dc39ba0bf82e213U, 0xbe9407bf3e951523U,
  0x3f1cdbaf3e91caf2U, 0xbf2fa877bc0e8f0fU, 0xbed1e2c1bfa24726U, 0xbcc68dd23e79a40dU,
  0x3e7f2427bfefeebcU, 0xbdf16ae43e9bed6cU, 0xbc6e748abdb2ea0fU, 0x3deec25d3f23b716U,
  0x3e710ebebe880391U, 0x3e12efd83b7a6fd2U, 0xbe0052b1be9defeeU, 0xbe366b373e467134U,
  0xbd0924583cc89609U, 0x3ed2c7ebbe86d2caU, 0xbf521a2abf0cad32U, 0x3d37d20f3e35a3caU,
  0xbffdc43dbebdd325U, 0xbeb47fdc3e438cc8U, 0x3e8d69f8bf0efd9fU, 0xbda9043cbe892358U,
  0x3e44bafaba70a75bU, 0x3dfa886c3ec8fae6U, 0x3eb8e2063ea52383U, 0xbdadd4d3bef10ea0U,
  0x3cb45f02be937cc7U, 0x3d259d14bb954100U, 0xbe8154b23d0f637bU, 0x3f109c0cbf80e6e3U,
  0x3eadcccebe2b430cU, 0xbf86e70bbd96fbb7U, 0x3f732c2f3df015f1U, 0x3d2003aebeaa9b4fU,
  0xbf2314f93e76384cU, 0x3d04b692bd15afc7U, 0x3e78615cbef6dee3U, 0xbec031ec3ea635d4U,
  0xbbced09a3c9f3389U, 0xbf28dd643f28671bU, 0xbf07871bbc3d1dc0U, 0x3c54470a3b0bdbeeU,
  0xbe905d9438e281a5U, 0x39be67933ba73362U, 0xbe256dd93dfc65d3U, 0x3d72466cbed82e0dU,
  0xbe33f2013d03c476U, 0x3e0167113b896f48U, 0x3f0df681be450938U, 0xbe0c055d3edd6a5cU,
  0x3d9d34e3bc2ab11eU, 0x3e9b6251bdeba663U, 0x3e0a69563db8dcf7U, 0x3ced46bfb94ea550U,
  0x3ed3aed1be0ee299U, 0xbeb46dfcbd993625U,
};


ai_handle g_network_weights_table[1 + 2] = {
  AI_HANDLE_PTR(AI_MAGIC_MARKER),
  AI_HANDLE_PTR(s_network_weights_array_u64),
  AI_HANDLE_PTR(AI_MAGIC_MARKER),
};

